{"merges": [["i", "n"], ["a", "n"], ["e", "n"], ["a", "t"], ["o", "n"], ["r", "e"], ["in", "g"], ["e", "r"], ["e", "s"], ["o", "r"], ["o", "u"], ["an", "d"], ["s", "t"], ["t", "h"], ["a", "l"], ["d", "e"], ["c", "h"], ["l", "e"], ["r", "o"], ["y", "ou"], ["A", ":"], ["Q", ":"], ["i", "on"], ["a", "r"], ["e", "d"], ["t", "o"], ["en", "t"], ["i", "t"], ["i", "c"], ["a", "s"], ["c", "t"], ["p", "ro"], ["i", "s"], ["m", "o"], ["W", "h"], ["e", "l"], ["u", "s"], ["in", "e"], ["Wh", "at"], ["en", "c"], ["e", "m"], ["i", "m"], ["f", "or"], ["r", "a"], ["de", "l"], ["at", "ion"], ["mo", "del"], ["i", "l"], ["s", "."], ["m", "a"], ["th", "e"], ["p", "l"], ["o", "w"], ["y", "st"], ["yst", "em"], ["s", "ystem"], ["i", "d"], ["s", ","], ["e", "x"], ["c", "on"], ["c", "o"], ["w", "or"], ["l", "y"], ["u", "re"], ["m", "ent"], ["you", "r"], ["le", "ar"], ["a", "b"], ["d", "o"], ["lear", "n"], ["d", "at"], ["i", "p"], ["b", "u"], ["enc", "e"], ["a", "m"], ["in", "t"], ["a", "c"], ["o", "f"], ["s", "e"], ["wor", "k"], ["i", "th"], ["p", "er"], ["w", "ith"], ["i", "z"], ["learn", "ing"], ["c", "i"], ["p", "re"], ["H", "ow"], ["en", "d"], ["a", "re"], ["es", "s"], ["v", "e"], ["it", "y"], ["e", "t"], ["ch", "ine"], ["bu", "il"], ["dat", "a"], ["i", "g"], ["ma", "chine"], ["h", "e"], ["co", "m"], ["for", "m"], ["o", "y"], ["a", "p"], ["d", "u"], ["t", "ra"], ["c", "l"], ["q", "u"], ["d", "ing"], ["n", "d"], ["c", "ess"], ["en", "g"], ["s", "u"], ["o", "l"], ["t", "r"], ["e", "ct"], ["pl", "oy"], ["k", "e"], ["M", "L"], ["st", "r"], ["ip", "el"], ["s", "i"], ["us", "e"], ["a", "y"], ["a", "g"], ["pro", "cess"], ["de", "ploy"], ["p", "ipel"], ["de", "v"], ["c", "e"], ["ar", "ch"], ["o", "c"], ["system", "s"], ["d", "id"], ["at", "e"], ["al", "ly"], ["l", "d"], ["ct", "ion"], ["model", "s"], ["l", "i"], ["t", "e"], ["f", "ic"], ["th", "at"], ["al", "l"], ["es", ","], ["an", "s"], ["v", "al"], ["process", "ing"], ["o", "p"], ["w", "h"], ["i", "v"], ["com", "p"], ["f", "in"], ["ac", "k"], ["deploy", "ment"], ["enc", "y"], ["d", "es"], ["u", "r"], ["ine", "er"], ["eng", "ineer"], ["a", "d"], ["buil", "ding"], ["u", "n"], ["t", "im"], ["us", "ed"], ["f", "er"], ["ou", "t"], ["P", "y"], ["to", "k"], ["tok", "en"], ["tr", "ans"], ["u", "l"], ["cl", "u"], ["i", "le"], ["ex", "per"], ["C", "R"], ["CR", "F"], ["li", "ke"], ["es", "."], ["e", "f"], ["E", "R"], ["a", "ch"], ["ex", "t"], ["m", "e"], ["fic", "i"], ["N", "L"], ["ic", "al"], ["in", "ing"], ["pipel", "ine"], ["s", "?"], ["f", "oc"], ["ci", "al"], ["dev", "ic"], ["L", "S"], ["LS", "T"], ["LST", "M"], ["A", "nd"], ["And", "ro"], ["Andro", "id"], ["ig", "n"], ["im", "pro"], ["b", "le"], ["pre", "processing"], ["iz", "ation"], ["ou", "ld"], ["b", "as"], ["f", "ro"], ["fro", "m"], ["NL", "P"], ["h", "as"], ["re", "al"], ["exper", "i"], ["experi", "ence"], ["se", "arch"], ["us", "ing"], ["n", "e"], ["per", "form"], ["u", "t"], ["h", "a"], ["ap", "pl"], ["A", "I"], ["h", "and"], ["T", "or"], ["Tor", "ch"], ["er", "n"], ["T", "he"], ["im", "p"], ["con", "si"], ["consi", "st"], ["an", "t"], ["w", "ould"], ["bas", "ed"], ["H", "e"], ["d", "i"], ["fin", "an"], ["finan", "cial"], ["re", "search"], ["v", "i"], ["s", "c"], ["b", "ack"], ["B", "i"], ["Bi", "LSTM"], ["it", "ion"], ["e", "re"], ["des", "ign"], ["b", "y"], ["es", "t"], ["an", "ce"], ["tra", "ining"], ["f", "e"], ["b", "e"], ["ha", "ve"], ["in", "clu"], ["e", "p"], ["n", "am"], ["v", "er"], ["pro", "ble"], ["proble", "m"], ["s", "o"], ["at", "ure"], ["i", "es"], ["N", "ER"], ["t", "s"], ["-", "to"], ["-to", "-"], ["real", "-"], ["str", "u"], ["stru", "ct"], ["A", "P"], ["AP", "I"], ["fe", "ature"], ["in", "fer"], ["infer", "ence"], ["er", "s"], ["ag", "e"], ["p", "e"], ["te", "ch"], ["con", "st"], ["const", "ra"], ["ef", "fici"], ["struct", "ure"], ["e", "val"], ["o", "m"], ["iz", "e"], ["s", "ure"], ["u", "g"], ["an", "g"], ["el", "l"], ["ic", "ation"], ["p", "ar"], ["pro", "du"], ["ab", "le"], ["v", "ing"], ["pipel", "in"], ["S", "M"], ["SM", "S"], ["c", "u"], ["re", "du"], ["op", "tim"], ["hand", "le"], ["L", "L"], ["in", "to"], ["i", "ch"], ["t", "ext"], ["a", "v"], ["ing", ","], ["tech", "n"], ["o", "g"], ["dev", "el"], ["devel", "op"], ["b", "ile"], ["devic", "e"], ["o", "th"], ["on", "g"], ["ab", "il"], ["to", "ol"], ["buil", "t"], ["el", "y"], ["pro", "j"], ["proj", "ect"], ["c", "r"], ["r", "ing"], ["M", "y"], ["I", "t"], ["se", "qu"], ["ay", "er"], ["ent", "ly"], ["w", "he"], ["foc", "us"], ["ar", "g"], ["model", "s."], ["t", "ed"], ["arch", "it"], ["archit", "ect"], ["architect", "ure"], ["mo", "bile"], ["sc", "al"], ["system", "s."], ["su", "ch"], ["re", "s"], ["Py", "th"], ["Pyth", "on"], ["work", "ed"], ["h", "ip"], ["a", "ct"], ["p", "end"], ["LL", "M"], ["b", "et"], ["w", "e"], ["wh", "ich"], ["l", "ayer"], ["en", "sure"], ["J", "ay"], ["an", "th"], ["ci", "ence"], ["a", "st"], ["I", "n"], ["p", "r"], ["appl", "ication"], ["real-", "wor"], ["real-wor", "ld"], ["on", "-"], ["on-", "device"], ["a", "ction"], ["ing", "."], ["back", "end"], ["c", "an"], ["tr", "i"], ["int", "ern"], ["ig", "h"], ["perform", "ance"], ["dat", "as"], ["datas", "et"], ["f", "ul"], ["imp", "le"], ["constra", "int"], ["t", "ion"], ["l", "ab"], ["consist", "ency"], ["Jay", "anth"], ["system", "s,"], ["comp", "le"], ["at", "ed"], ["end", "-to-"], ["end-to-", "end"], ["ex", "p"], ["c", "k"], ["trans", "action"], ["u", "nd"], ["r", "on"], ["il", "l"], ["str", "ong"], ["s", "ol"], ["S", "Q"], ["SQ", "L"], ["Py", "Torch"], ["ip", "t"], ["imple", "ment"], ["d", "ic"], ["abil", "ity"], ["a", "in"], ["de", "pend"], ["do", "es"], ["all", "eng"], ["t", "ag"], ["whe", "re"], ["l", "ang"], ["lang", "u"], ["und", "er"], ["produ", "ction"], ["en", "vi"], ["envi", "ron"], ["environ", "ment"], ["BiLSTM", "-"], ["BiLSTM-", "CRF"], ["o", "re"], ["int", "ere"], ["intere", "st"], ["r", "un"], ["f", "ra"], ["c", "is"], ["g", "en"], ["gen", "er"], ["develop", "ment"], ["F", "ast"], ["Fast", "API"], ["u", "b"], ["al", "so"], ["ap", "pro"], ["eval", "u"], ["f", "l"], ["tim", "e"], ["m", "on"], ["ou", "n"], ["w", "as"], ["i", "f"], ["ation", "."], ["val", "id"], ["Wh", "y"], ["ch", "alleng"], ["l", "arg"], ["larg", "e"], ["langu", "age"], ["ar", "y"], ["ab", "out"], ["form", "er"], ["-", "based"], ["ent", "ity"], ["effici", "ent"], ["s", "er"], ["cis", "ion"], ["it", "i"], ["in", "k"], ["ro", "l"], ["le", "v"], ["tool", "s"], ["s", "hip"], ["0", "0"], ["redu", "c"], ["a", "il"], ["I", "D"], ["ID", "F"], ["al", "y"], ["wh", "ile"], ["m", "an"], ["o", "t"], ["bet", "we"], ["betwe", "en"], ["ra", "c"], ["impro", "v"], ["structure", "d"], ["l", "at"], ["p", "ut"], ["st", "ep"], ["D", "at"], ["pe", "ci"], ["ma", "in"], ["ex", "tra"], ["inclu", "ding"], ["b", "oth"], ["com", "b"], ["cl", "ou"], ["clou", "d"], ["h", "ow"], ["ma", "k"], ["learning", ","], ["re", "qu"], ["y", ","], ["t", "as"], ["tas", "k"], ["pipelin", "es"], ["ab", "as"], ["intern", "ship"], ["O", "ne"], ["an", "c"], ["co", "re"], ["i", "re"], ["Torch", "S"], ["TorchS", "cr"], ["TorchScr", "ipt"]], "str_to_id": {"#": 0, "%": 1, "&": 2, "(": 3, ")": 4, "+": 5, ",": 6, "-": 7, "-based": 8, "-to-": 9, ".": 10, "/": 11, "0": 12, "00": 13, "1": 14, "2": 15, "3": 16, "5": 17, "8": 18, "9": 19, ":": 20, "<": 21, ">": 22, "?": 23, "A": 24, "A:": 25, "AI": 26, "API": 27, "Android": 28, "B": 29, "BiLSTM": 30, "BiLSTM-CRF": 31, "C": 32, "CRF": 33, "D": 34, "Dat": 35, "E": 36, "ER": 37, "F": 38, "FastAPI": 39, "G": 40, "H": 41, "He": 42, "How": 43, "I": 44, "IDF": 45, "In": 46, "It": 47, "J": 48, "Jay": 49, "Jayanth": 50, "K": 51, "L": 52, "LL": 53, "LLM": 54, "LSTM": 55, "M": 56, "ML": 57, "My": 58, "N": 59, "NER": 60, "NL": 61, "NLP": 62, "O": 63, "One": 64, "P": 65, "Py": 66, "PyTorch": 67, "Python": 68, "Q": 69, "Q:": 70, "R": 71, "S": 72, "SMS": 73, "SQL": 74, "T": 75, "The": 76, "TorchScript": 77, "U": 78, "V": 79, "W": 80, "Wh": 81, "What": 82, "Why": 83, "X": 84, "Y": 85, "a": 86, "ab": 87, "abas": 88, "abil": 89, "ability": 90, "able": 91, "about": 92, "ac": 93, "ach": 94, "ack": 95, "act": 96, "action": 97, "ad": 98, "ag": 99, "age": 100, "ail": 101, "ain": 102, "al": 103, "all": 104, "alleng": 105, "ally": 106, "also": 107, "aly": 108, "am": 109, "an": 110, "anc": 111, "ance": 112, "and": 113, "ang": 114, "ans": 115, "ant": 116, "anth": 117, "ap": 118, "appl": 119, "application": 120, "appro": 121, "ar": 122, "arch": 123, "architecture": 124, "are": 125, "arg": 126, "ary": 127, "as": 128, "ast": 129, "at": 130, "ate": 131, "ated": 132, "ation": 133, "ation.": 134, "ature": 135, "av": 136, "ay": 137, "ayer": 138, "b": 139, "back": 140, "backend": 141, "bas": 142, "based": 143, "be": 144, "bet": 145, "between": 146, "bile": 147, "ble": 148, "both": 149, "bu": 150, "buil": 151, "building": 152, "built": 153, "by": 154, "c": 155, "can": 156, "ce": 157, "cess": 158, "ch": 159, "challeng": 160, "chine": 161, "ci": 162, "cial": 163, "cience": 164, "cis": 165, "cision": 166, "ck": 167, "cl": 168, "cloud": 169, "clu": 170, "co": 171, "com": 172, "comb": 173, "comp": 174, "comple": 175, "con": 176, "consist": 177, "consistency": 178, "constra": 179, "constraint": 180, "core": 181, "cr": 182, "ct": 183, "ction": 184, "cu": 185, "d": 186, "dat": 187, "data": 188, "dataset": 189, "de": 190, "del": 191, "depend": 192, "deploy": 193, "deployment": 194, "des": 195, "design": 196, "dev": 197, "develop": 198, "development": 199, "devic": 200, "device": 201, "di": 202, "dic": 203, "did": 204, "ding": 205, "do": 206, "does": 207, "du": 208, "e": 209, "ect": 210, "ed": 211, "ef": 212, "effici": 213, "efficient": 214, "el": 215, "ell": 216, "ely": 217, "em": 218, "en": 219, "enc": 220, "ence": 221, "ency": 222, "end": 223, "end-to-end": 224, "eng": 225, "engineer": 226, "ensure": 227, "ent": 228, "entity": 229, "ently": 230, "environment": 231, "ep": 232, "er": 233, "ere": 234, "ern": 235, "ers": 236, "es": 237, "es,": 238, "es.": 239, "ess": 240, "est": 241, "et": 242, "eval": 243, "evalu": 244, "ex": 245, "exp": 246, "exper": 247, "experience": 248, "ext": 249, "extra": 250, "f": 251, "fe": 252, "feature": 253, "fer": 254, "fic": 255, "fici": 256, "fin": 257, "financial": 258, "fl": 259, "foc": 260, "focus": 261, "for": 262, "form": 263, "former": 264, "fra": 265, "from": 266, "ful": 267, "g": 268, "gener": 269, "h": 270, "ha": 271, "hand": 272, "handle": 273, "has": 274, "have": 275, "he": 276, "hip": 277, "how": 278, "i": 279, "ic": 280, "ical": 281, "ication": 282, "ich": 283, "id": 284, "ies": 285, "if": 286, "ig": 287, "igh": 288, "ign": 289, "il": 290, "ile": 291, "ill": 292, "im": 293, "imp": 294, "imple": 295, "implement": 296, "impro": 297, "improv": 298, "in": 299, "inclu": 300, "including": 301, "ine": 302, "ineer": 303, "inference": 304, "ing": 305, "ing,": 306, "ing.": 307, "ining": 308, "ink": 309, "int": 310, "interest": 311, "intern": 312, "internship": 313, "into": 314, "ion": 315, "ip": 316, "ipel": 317, "ipt": 318, "ire": 319, "is": 320, "it": 321, "ith": 322, "iti": 323, "ition": 324, "ity": 325, "iv": 326, "iz": 327, "ization": 328, "ize": 329, "j": 330, "k": 331, "ke": 332, "l": 333, "lab": 334, "langu": 335, "language": 336, "large": 337, "lat": 338, "layer": 339, "le": 340, "lear": 341, "learn": 342, "learning": 343, "learning,": 344, "lev": 345, "li": 346, "like": 347, "ly": 348, "m": 349, "ma": 350, "machine": 351, "main": 352, "mak": 353, "man": 354, "me": 355, "ment": 356, "mo": 357, "mobile": 358, "model": 359, "models": 360, "models.": 361, "mon": 362, "n": 363, "nam": 364, "nd": 365, "ne": 366, "o": 367, "oc": 368, "of": 369, "og": 370, "ol": 371, "om": 372, "on": 373, "on-device": 374, "ong": 375, "op": 376, "optim": 377, "or": 378, "ore": 379, "ot": 380, "oth": 381, "ou": 382, "ould": 383, "oun": 384, "out": 385, "ow": 386, "oy": 387, "p": 388, "par": 389, "pe": 390, "peci": 391, "pend": 392, "per": 393, "perform": 394, "performance": 395, "pipelin": 396, "pipeline": 397, "pipelines": 398, "pl": 399, "ploy": 400, "pr": 401, "pre": 402, "preprocessing": 403, "pro": 404, "problem": 405, "process": 406, "processing": 407, "produ": 408, "production": 409, "project": 410, "put": 411, "q": 412, "qu": 413, "r": 414, "ra": 415, "rac": 416, "re": 417, "real": 418, "real-": 419, "real-world": 420, "redu": 421, "reduc": 422, "requ": 423, "res": 424, "research": 425, "ring": 426, "ro": 427, "rol": 428, "ron": 429, "run": 430, "s": 431, "s,": 432, "s.": 433, "s?": 434, "sc": 435, "scal": 436, "se": 437, "search": 438, "sequ": 439, "ser": 440, "ship": 441, "si": 442, "so": 443, "sol": 444, "st": 445, "step": 446, "str": 447, "strong": 448, "struct": 449, "structure": 450, "structured": 451, "su": 452, "such": 453, "sure": 454, "system": 455, "systems": 456, "systems,": 457, "systems.": 458, "t": 459, "tag": 460, "task": 461, "te": 462, "tech": 463, "techn": 464, "ted": 465, "text": 466, "th": 467, "that": 468, "the": 469, "tim": 470, "time": 471, "tion": 472, "to": 473, "token": 474, "tool": 475, "tools": 476, "tr": 477, "tra": 478, "training": 479, "trans": 480, "transaction": 481, "tri": 482, "ts": 483, "u": 484, "ub": 485, "ug": 486, "ul": 487, "un": 488, "und": 489, "under": 490, "ur": 491, "ure": 492, "us": 493, "use": 494, "used": 495, "using": 496, "ut": 497, "v": 498, "val": 499, "valid": 500, "ve": 501, "ver": 502, "vi": 503, "ving": 504, "w": 505, "was": 506, "we": 507, "wh": 508, "whe": 509, "where": 510, "which": 511, "while": 512, "with": 513, "wor": 514, "work": 515, "worked": 516, "would": 517, "x": 518, "y": 519, "y,": 520, "you": 521, "your": 522, "ystem": 523, "z": 524, "\u2013": 525, "\u2014": 526, "\u2019": 527, "\u201c": 528, "\u201d": 529}}